{
  "kind": 0,
  "vocab": {
    "Ġко": 151,
    "x": 8,
    "Ġтолько": 401,
    "на": 134,
    "6": 13,
    "Ġто": 154,
    "говор": 406,
    "Ж": 14,
    "A": 15,
    "ин": 181,
    "лос": 310,
    "ень": 268,
    "Ġтогда": 459,
    "ите": 476,
    "Ġ": 21,
    "ая": 200,
    "ж": 23,
    "Ġраз": 260,
    "лько": 370,
    "ме": 311,
    "Ġза": 186,
    "Ġперед": 480,
    "ным": 484,
    "д": 32,
    "исс": 321,
    "Ġвспомнил": 381,
    "иль": 231,
    "ĠСофь": 283,
    "Ġочень": 436,
    "В": 33,
    "люд": 208,
    "ĠМ": 244,
    "Ġиз": 277,
    "Ġгадко": 423,
    "нягин": 425,
    " –": 149,
    "ращ": 442,
    "ные": 437,
    "ел": 133,
    "Ġве": 390,
    "Ġтак": 207,
    "л": 46,
    "ĠВ": 189,
    "ть": 138,
    "ит": 197,
    "<pad>": 0,
    "Ġтем": 356,
    "ь": 50,
    "Ġвоз": 378,
    "ить": 195,
    "Ġпред": 449,
    "ив": 408,
    "ĠФилип": 481,
    "ли": 194,
    "Ġок": 496,
    "то": 115,
    "ч": 57,
    "Ġвсе": 350,
    "г": 59,
    "ую": 375,
    "ели": 443,
    "сь,": 446,
    "Ġбо": 323,
    "ĠП": 365,
    "ен": 127,
    "Ġи,": 470,
    "Ġсебя": 389,
    "ĠСоф": 282,
    "ĠВас": 245,
    "ев": 182,
    "8": 70,
    "ф": 69,
    "ала": 205,
    "7": 71,
    "след": 354,
    "чего": 361,
    "но,": 352,
    "се": 477,
    "9": 82,
    "ĠС": 224,
    "!": 85,
    "ки": 295,
    "i": 86,
    "б": 87,
    "f": 89,
    "Ġуже": 486,
    "Ġпо": 137,
    "чи": 380,
    "Ġэ": 159,
    "Ġбыл": 320,
    "ся,": 396,
    "Ġкак": 179,
    "Ġб": 132,
    "Ġей": 432,
    "Ġу": 155,
    "Ġнын": 468,
    "ĠФилипп": 482,
    "ку": 267,
    "Ġска": 202,
    "Ġсвои": 478,
    "Ġгру": 474,
    "лж": 299,
    "ерь": 416,
    "шел": 328,
    "Ġоб": 239,
    "ры": 240,
    "Ġчув": 347,
    "Ġто,": 403,
    "è": 106,
    "Ч": 105,
    "Ġкото": 210,
    "Ġмо": 255,
    "ску": 341,
    "l": 108,
    "Ġсказал": 363,
    "Ġней,": 483,
    "ĠИ": 278,
    "ĠСофья": 344,
    "Ġстал": 387,
    "ак": 139,
    "дно": 266,
    "Ġви": 291,
    "енно": 227,
    "Ġдух": 451,
    "омнил": 349,
    "ину": 304,
    "м,": 264,
    "ни": 165,
    "дко": 422,
    "Е": 16,
    "b": 20,
    "Г": 18,
    "Р": 19,
    ")": 22,
    "ло": 150,
    "ет": 187,
    "Ġно": 258,
    "лы": 410,
    "нягиня": 499,
    "в": 24,
    "аль": 440,
    "ра": 126,
    "им": 395,
    "Ġны": 430,
    "(": 26,
    ".": 27,
    "ĠКак": 494,
    "ру": 178,
    "р": 30,
    "Ġот": 177,
    "Ġни": 199,
    "P": 31,
    ", –": 201,
    "Ġвы": 209,
    "ис": 275,
    "ело": 399,
    ";": 34,
    "ств": 257,
    "е": 35,
    "ня": 271,
    "по": 337,
    "вать": 491,
    "<sep>": 4,
    "Ġа": 296,
    "дить": 417,
    "ы": 39,
    "e": 40,
    "Э": 42,
    "Ф": 43,
    "зы": 314,
    "го,": 404,
    "с": 45,
    "че": 235,
    "ать": 221,
    "Ш": 49,
    "ĠА": 327,
    "но": 121,
    "раж": 461,
    " ": 53,
    ",": 54,
    "ени": 167,
    "Ġсебе": 331,
    "</s>": 3,
    "Ġне": 130,
    "ро": 141,
    "…": 56,
    "ĠКо": 263,
    "ĠПо": 465,
    "же": 366,
    "Ġтако": 458,
    "Ġмн": 467,
    "рав": 242,
    "щ": 61,
    "я": 62,
    "Ġи": 120,
    "ении": 452,
    "ĠМисс": 322,
    "п": 64,
    "ас": 171,
    "ю,": 286,
    "П": 66,
    "Ġду": 228,
    "т": 67,
    "Я": 68,
    "мотр": 469,
    "илип": 472,
    "ал": 125,
    "к": 75,
    "Х": 76,
    "М": 77,
    "бы": 292,
    "мал": 379,
    "Ġру": 392,
    "Ġво": 212,
    "ги": 333,
    "Ġмежду": 358,
    "ком": 420,
    "сть": 238,
    "Ġсто": 383,
    "об": 280,
    "Ġкомна": 490,
    ":": 88,
    "Ġт": 143,
    "ем": 160,
    "атер": 368,
    "О": 91,
    "да": 162,
    "з": 93,
    "ов": 145,
    "Ġм": 140,
    "еш": 450,
    "Ġсказала": 300,
    "нош": 411,
    "ась": 421,
    "ô": 95,
    "<s>": 2,
    "Ġкоторы": 346,
    "a": 99,
    "н": 98,
    "вы": 460,
    "Д": 100,
    "ле": 163,
    "v": 102,
    "Ġего": 192,
    "Ġ«": 287,
    "Ġчто": 152,
    "Ġна": 147,
    "-то": 400,
    "и,": 243,
    "И": 113,
    "Ġпризна": 497,
    "ĠСо": 281,
    "е,": 158,
    "у": 10,
    "а": 11,
    "еп": 362,
    "жу": 431,
    "ный": 372,
    "ь,": 335,
    "Ġтот": 466,
    "дя": 325,
    "Ġстра": 415,
    "d": 25,
    "сле": 288,
    "Ġоч": 309,
    "уж": 262,
    "Ġтеп": 488,
    "ĠР": 398,
    "еж": 251,
    "Ġговорил": 454,
    "ар": 276,
    "ко": 153,
    "ель": 241,
    "Ġона,": 498,
    "ми": 168,
    "ĠО": 236,
    "ат": 259,
    "0": 36,
    "Ġгла": 330,
    "Ġсдел": 355,
    "еб": 206,
    "Ġга": 342,
    "Ġотнош": 412,
    "Ġпр": 173,
    "ельно": 305,
    "или": 317,
    "гда": 190,
    "Ġотв": 388,
    "t": 48,
    "ĠВасиль": 247,
    "ды": 386,
    "p": 51,
    "Ġсов": 382,
    "Ġдля": 385,
    "вор": 191,
    "r": 55,
    "ез": 371,
    "Ġдур": 426,
    "за": 148,
    "рем": 434,
    "Ġкоторо": 326,
    "людов": 225,
    "ĠМисси": 445,
    "Ġправ": 289,
    "ей": 211,
    "му": 188,
    "w": 63,
    "ще": 312,
    "Ġнего": 453,
    "ĠКолос": 339,
    "o": 65,
    "лу": 233,
    "Ġпри": 223,
    "»,": 402,
    "ĠК": 183,
    "жно": 444,
    "ствовал": 407,
    "Ġвсё": 391,
    "Ġсу": 301,
    "Ġпро": 174,
    "m": 72,
    "Ġжи": 270,
    "ц": 73,
    "А": 78,
    "З": 79,
    "ль": 216,
    "ил": 131,
    "ство": 254,
    "лю": 184,
    "хо": 234,
    "Ġдень": 464,
    "Ġса": 290,
    "Б": 83,
    "ма": 409,
    "щи": 435,
    "Ġглаза": 343,
    "Ġбыло": 222,
    "<unk>": 1,
    "ре": 329,
    "бу": 413,
    "ĠВасильевна": 336,
    "э": 90,
    "до": 246,
    "Ġд": 129,
    "ех": 193,
    "Ġра": 198,
    "аю": 332,
    "ты": 475,
    "ĠД": 397,
    "Ġо": 119,
    "ения": 297,
    "Ġхот": 447,
    "ря": 427,
    "ĠКолосов": 340,
    "5": 107,
    "Ġсам": 405,
    "Ġя": 265,
    "Ġж": 161,
    "не": 256,
    "ение": 364,
    "Ġстыдно": 448,
    "ю.": 485,
    "Ġдру": 353,
    "Ġпер": 285,
    "Ġжиз": 376,
    "я,": 249,
    "ю": 7,
    "Ġчтобы": 324,
    "ми,": 495,
    "Ġп": 118,
    "ё": 9,
    "-": 12,
    "ны": 164,
    "рас": 359,
    "а,": 313,
    "Ġго": 215,
    "ча": 394,
    "У": 17,
    "Ġлу": 455,
    "й,": 180,
    "у,": 487,
    "Ġбез": 462,
    "том": 441,
    "Ġмен": 439,
    "тр": 307,
    "C": 28,
    "c": 29,
    "ду": 218,
    "Ġпа": 463,
    "сь": 203,
    "Ġдо": 229,
    "а.": 471,
    "Ġе": 135,
    "Ġживо": 456,
    "Ġн": 117,
    "Ġв": 116,
    "Ġее": 250,
    "ля": 219,
    "ну": 237,
    "ка": 156,
    "ĠВасильев": 248,
    "?": 37,
    "С": 38,
    "вал": 252,
    "s": 41,
    "ут": 479,
    "’": 44,
    "Ġк": 122,
    "х": 47,
    "Ġч": 136,
    "сп": 269,
    "ув": 302,
    "–": 52,
    "ом": 185,
    "нов": 419,
    "ĠОн": 315,
    "став": 373,
    "ве": 428,
    "Ġбыла": 360,
    "Ġком": 489,
    "Ġже": 303,
    "ительно": 334,
    "ер": 142,
    "е.": 293,
    "ви": 438,
    "Ġлю": 457,
    "К": 58,
    "g": 60,
    "ла": 169,
    "Филип": 473,
    "ными": 348,
    "Ġвсп": 369,
    "Ġсво": 214,
    "Ġсо": 351,
    "ĠН": 170,
    "Ġсказ": 232,
    "Ġхо": 308,
    "сти": 253,
    "Ġвс": 157,
    "ужд": 418,
    "ши": 284,
    "«": 74,
    "го": 123,
    "ше": 393,
    "ста": 429,
    "Ġз": 319,
    "Ġг": 172,
    "ила": 298,
    "2": 80,
    "Ġст": 196,
    "о": 81,
    "во": 128,
    "Ġбы": 146,
    "бо": 367,
    "Ġкогда": 316,
    "Ġос": 433,
    "h": 84,
    "ся": 166,
    "дел": 273,
    ". –": 272,
    "Ġсеб": 220,
    "ав": 213,
    "Ġсле": 377,
    "Ġсоб": 492,
    "ыдно": 374,
    "ъ": 92,
    "Ġговор": 274,
    "Ġмог": 357,
    "зна": 384,
    "ст": 124,
    "u": 94,
    "Ġ–": 175,
    "ĠНех": 226,
    "ежду": 345,
    "Ġон": 144,
    "на,": 414,
    "омн": 294,
    "Ġэто": 176,
    "гин": 424,
    "Ġод": 493,
    "1": 96,
    "Ġс": 114,
    "м": 97,
    "<cls>": 5,
    "сто": 338,
    "й": 101,
    "мо": 261,
    "Н": 103,
    "<mask>": 6,
    "Т": 104,
    "ту": 279,
    "ти": 306,
    "ед": 204,
    "»": 109,
    "и": 110,
    "Ġему": 318,
    "ш": 111,
    "Ġона": 217,
    "ĠНехлюдов": 230,
    "n": 112
  },
  "specialTokens": {
    "padToken": "<pad>",
    "unkToken": "<unk>",
    "bosToken": "<s>",
    "eosToken": "</s>",
    "sepToken": "<sep>",
    "clsToken": "<cls>",
    "maskToken": "<mask>"
  },
  "specialTokenIds": {
    "<sep>": 4,
    "<pad>": 0,
    "<s>": 2,
    "<cls>": 5,
    "</s>": 3,
    "<mask>": 6,
    "<unk>": 1
  },
  "continuingSubwordPrefix": "",
  "maxInputCharsPerWord": 100,
  "preserveCase": true,
  "merges": [
    {
      "pair": [
        "Ġ",
        "с"
      ],
      "newToken": "Ġс",
      "priority": 0
    },
    {
      "pair": [
        "т",
        "о"
      ],
      "newToken": "то",
      "priority": 1
    },
    {
      "pair": [
        "Ġ",
        "в"
      ],
      "newToken": "Ġв",
      "priority": 2
    },
    {
      "pair": [
        "Ġ",
        "н"
      ],
      "newToken": "Ġн",
      "priority": 3
    },
    {
      "pair": [
        "Ġ",
        "п"
      ],
      "newToken": "Ġп",
      "priority": 4
    },
    {
      "pair": [
        "Ġ",
        "о"
      ],
      "newToken": "Ġо",
      "priority": 5
    },
    {
      "pair": [
        "Ġ",
        "и"
      ],
      "newToken": "Ġи",
      "priority": 6
    },
    {
      "pair": [
        "н",
        "о"
      ],
      "newToken": "но",
      "priority": 7
    },
    {
      "pair": [
        "Ġ",
        "к"
      ],
      "newToken": "Ġк",
      "priority": 8
    },
    {
      "pair": [
        "г",
        "о"
      ],
      "newToken": "го",
      "priority": 9
    },
    {
      "pair": [
        "с",
        "т"
      ],
      "newToken": "ст",
      "priority": 10
    },
    {
      "pair": [
        "а",
        "л"
      ],
      "newToken": "ал",
      "priority": 11
    },
    {
      "pair": [
        "р",
        "а"
      ],
      "newToken": "ра",
      "priority": 12
    },
    {
      "pair": [
        "е",
        "н"
      ],
      "newToken": "ен",
      "priority": 13
    },
    {
      "pair": [
        "в",
        "о"
      ],
      "newToken": "во",
      "priority": 14
    },
    {
      "pair": [
        "Ġ",
        "д"
      ],
      "newToken": "Ġд",
      "priority": 15
    },
    {
      "pair": [
        "Ġн",
        "е"
      ],
      "newToken": "Ġне",
      "priority": 16
    },
    {
      "pair": [
        "и",
        "л"
      ],
      "newToken": "ил",
      "priority": 17
    },
    {
      "pair": [
        "Ġ",
        "б"
      ],
      "newToken": "Ġб",
      "priority": 18
    },
    {
      "pair": [
        "е",
        "л"
      ],
      "newToken": "ел",
      "priority": 19
    },
    {
      "pair": [
        "н",
        "а"
      ],
      "newToken": "на",
      "priority": 20
    },
    {
      "pair": [
        "Ġ",
        "е"
      ],
      "newToken": "Ġе",
      "priority": 21
    },
    {
      "pair": [
        "Ġ",
        "ч"
      ],
      "newToken": "Ġч",
      "priority": 22
    },
    {
      "pair": [
        "Ġп",
        "о"
      ],
      "newToken": "Ġпо",
      "priority": 23
    },
    {
      "pair": [
        "т",
        "ь"
      ],
      "newToken": "ть",
      "priority": 24
    },
    {
      "pair": [
        "а",
        "к"
      ],
      "newToken": "ак",
      "priority": 25
    },
    {
      "pair": [
        "Ġ",
        "м"
      ],
      "newToken": "Ġм",
      "priority": 26
    },
    {
      "pair": [
        "р",
        "о"
      ],
      "newToken": "ро",
      "priority": 27
    },
    {
      "pair": [
        "е",
        "р"
      ],
      "newToken": "ер",
      "priority": 28
    },
    {
      "pair": [
        "Ġ",
        "т"
      ],
      "newToken": "Ġт",
      "priority": 29
    },
    {
      "pair": [
        "Ġо",
        "н"
      ],
      "newToken": "Ġон",
      "priority": 30
    },
    {
      "pair": [
        "о",
        "в"
      ],
      "newToken": "ов",
      "priority": 31
    },
    {
      "pair": [
        "Ġб",
        "ы"
      ],
      "newToken": "Ġбы",
      "priority": 32
    },
    {
      "pair": [
        "Ġн",
        "а"
      ],
      "newToken": "Ġна",
      "priority": 33
    },
    {
      "pair": [
        "з",
        "а"
      ],
      "newToken": "за",
      "priority": 34
    },
    {
      "pair": [
        " ",
        "–"
      ],
      "newToken": " –",
      "priority": 35
    },
    {
      "pair": [
        "л",
        "о"
      ],
      "newToken": "ло",
      "priority": 36
    },
    {
      "pair": [
        "Ġк",
        "о"
      ],
      "newToken": "Ġко",
      "priority": 37
    },
    {
      "pair": [
        "Ġч",
        "то"
      ],
      "newToken": "Ġчто",
      "priority": 38
    },
    {
      "pair": [
        "к",
        "о"
      ],
      "newToken": "ко",
      "priority": 39
    },
    {
      "pair": [
        "Ġ",
        "то"
      ],
      "newToken": "Ġто",
      "priority": 40
    },
    {
      "pair": [
        "Ġ",
        "у"
      ],
      "newToken": "Ġу",
      "priority": 41
    },
    {
      "pair": [
        "к",
        "а"
      ],
      "newToken": "ка",
      "priority": 42
    },
    {
      "pair": [
        "Ġв",
        "с"
      ],
      "newToken": "Ġвс",
      "priority": 43
    },
    {
      "pair": [
        "е",
        ","
      ],
      "newToken": "е,",
      "priority": 44
    },
    {
      "pair": [
        "Ġ",
        "э"
      ],
      "newToken": "Ġэ",
      "priority": 45
    },
    {
      "pair": [
        "е",
        "м"
      ],
      "newToken": "ем",
      "priority": 46
    },
    {
      "pair": [
        "Ġ",
        "ж"
      ],
      "newToken": "Ġж",
      "priority": 47
    },
    {
      "pair": [
        "д",
        "а"
      ],
      "newToken": "да",
      "priority": 48
    },
    {
      "pair": [
        "л",
        "е"
      ],
      "newToken": "ле",
      "priority": 49
    },
    {
      "pair": [
        "н",
        "ы"
      ],
      "newToken": "ны",
      "priority": 50
    },
    {
      "pair": [
        "н",
        "и"
      ],
      "newToken": "ни",
      "priority": 51
    },
    {
      "pair": [
        "с",
        "я"
      ],
      "newToken": "ся",
      "priority": 52
    },
    {
      "pair": [
        "ен",
        "и"
      ],
      "newToken": "ени",
      "priority": 53
    },
    {
      "pair": [
        "м",
        "и"
      ],
      "newToken": "ми",
      "priority": 54
    },
    {
      "pair": [
        "л",
        "а"
      ],
      "newToken": "ла",
      "priority": 55
    },
    {
      "pair": [
        "Ġ",
        "Н"
      ],
      "newToken": "ĠН",
      "priority": 56
    },
    {
      "pair": [
        "а",
        "с"
      ],
      "newToken": "ас",
      "priority": 57
    },
    {
      "pair": [
        "Ġ",
        "г"
      ],
      "newToken": "Ġг",
      "priority": 58
    },
    {
      "pair": [
        "Ġп",
        "р"
      ],
      "newToken": "Ġпр",
      "priority": 59
    },
    {
      "pair": [
        "Ġп",
        "ро"
      ],
      "newToken": "Ġпро",
      "priority": 60
    },
    {
      "pair": [
        "Ġ",
        "–"
      ],
      "newToken": "Ġ–",
      "priority": 61
    },
    {
      "pair": [
        "Ġэ",
        "то"
      ],
      "newToken": "Ġэто",
      "priority": 62
    },
    {
      "pair": [
        "Ġо",
        "т"
      ],
      "newToken": "Ġот",
      "priority": 63
    },
    {
      "pair": [
        "р",
        "у"
      ],
      "newToken": "ру",
      "priority": 64
    },
    {
      "pair": [
        "Ġк",
        "ак"
      ],
      "newToken": "Ġкак",
      "priority": 65
    },
    {
      "pair": [
        "й",
        ","
      ],
      "newToken": "й,",
      "priority": 66
    },
    {
      "pair": [
        "и",
        "н"
      ],
      "newToken": "ин",
      "priority": 67
    },
    {
      "pair": [
        "е",
        "в"
      ],
      "newToken": "ев",
      "priority": 68
    },
    {
      "pair": [
        "Ġ",
        "К"
      ],
      "newToken": "ĠК",
      "priority": 69
    },
    {
      "pair": [
        "л",
        "ю"
      ],
      "newToken": "лю",
      "priority": 70
    },
    {
      "pair": [
        "о",
        "м"
      ],
      "newToken": "ом",
      "priority": 71
    },
    {
      "pair": [
        "Ġ",
        "за"
      ],
      "newToken": "Ġза",
      "priority": 72
    },
    {
      "pair": [
        "е",
        "т"
      ],
      "newToken": "ет",
      "priority": 73
    },
    {
      "pair": [
        "м",
        "у"
      ],
      "newToken": "му",
      "priority": 74
    },
    {
      "pair": [
        "Ġ",
        "В"
      ],
      "newToken": "ĠВ",
      "priority": 75
    },
    {
      "pair": [
        "г",
        "да"
      ],
      "newToken": "гда",
      "priority": 76
    },
    {
      "pair": [
        "во",
        "р"
      ],
      "newToken": "вор",
      "priority": 77
    },
    {
      "pair": [
        "Ġе",
        "го"
      ],
      "newToken": "Ġего",
      "priority": 78
    },
    {
      "pair": [
        "е",
        "х"
      ],
      "newToken": "ех",
      "priority": 79
    },
    {
      "pair": [
        "л",
        "и"
      ],
      "newToken": "ли",
      "priority": 80
    },
    {
      "pair": [
        "и",
        "ть"
      ],
      "newToken": "ить",
      "priority": 81
    },
    {
      "pair": [
        "Ġс",
        "т"
      ],
      "newToken": "Ġст",
      "priority": 82
    },
    {
      "pair": [
        "и",
        "т"
      ],
      "newToken": "ит",
      "priority": 83
    },
    {
      "pair": [
        "Ġ",
        "ра"
      ],
      "newToken": "Ġра",
      "priority": 84
    },
    {
      "pair": [
        "Ġн",
        "и"
      ],
      "newToken": "Ġни",
      "priority": 85
    },
    {
      "pair": [
        "а",
        "я"
      ],
      "newToken": "ая",
      "priority": 86
    },
    {
      "pair": [
        ",",
        " –"
      ],
      "newToken": ", –",
      "priority": 87
    },
    {
      "pair": [
        "Ġс",
        "ка"
      ],
      "newToken": "Ġска",
      "priority": 88
    },
    {
      "pair": [
        "с",
        "ь"
      ],
      "newToken": "сь",
      "priority": 89
    },
    {
      "pair": [
        "е",
        "д"
      ],
      "newToken": "ед",
      "priority": 90
    },
    {
      "pair": [
        "ал",
        "а"
      ],
      "newToken": "ала",
      "priority": 91
    },
    {
      "pair": [
        "е",
        "б"
      ],
      "newToken": "еб",
      "priority": 92
    },
    {
      "pair": [
        "Ġт",
        "ак"
      ],
      "newToken": "Ġтак",
      "priority": 93
    },
    {
      "pair": [
        "лю",
        "д"
      ],
      "newToken": "люд",
      "priority": 94
    },
    {
      "pair": [
        "Ġв",
        "ы"
      ],
      "newToken": "Ġвы",
      "priority": 95
    },
    {
      "pair": [
        "Ġко",
        "то"
      ],
      "newToken": "Ġкото",
      "priority": 96
    },
    {
      "pair": [
        "е",
        "й"
      ],
      "newToken": "ей",
      "priority": 97
    },
    {
      "pair": [
        "Ġв",
        "о"
      ],
      "newToken": "Ġво",
      "priority": 98
    },
    {
      "pair": [
        "а",
        "в"
      ],
      "newToken": "ав",
      "priority": 99
    },
    {
      "pair": [
        "Ġс",
        "во"
      ],
      "newToken": "Ġсво",
      "priority": 100
    },
    {
      "pair": [
        "Ġ",
        "го"
      ],
      "newToken": "Ġго",
      "priority": 101
    },
    {
      "pair": [
        "л",
        "ь"
      ],
      "newToken": "ль",
      "priority": 102
    },
    {
      "pair": [
        "Ġо",
        "на"
      ],
      "newToken": "Ġона",
      "priority": 103
    },
    {
      "pair": [
        "д",
        "у"
      ],
      "newToken": "ду",
      "priority": 104
    },
    {
      "pair": [
        "л",
        "я"
      ],
      "newToken": "ля",
      "priority": 105
    },
    {
      "pair": [
        "Ġс",
        "еб"
      ],
      "newToken": "Ġсеб",
      "priority": 106
    },
    {
      "pair": [
        "а",
        "ть"
      ],
      "newToken": "ать",
      "priority": 107
    },
    {
      "pair": [
        "Ġбы",
        "ло"
      ],
      "newToken": "Ġбыло",
      "priority": 108
    },
    {
      "pair": [
        "Ġпр",
        "и"
      ],
      "newToken": "Ġпри",
      "priority": 109
    },
    {
      "pair": [
        "Ġ",
        "С"
      ],
      "newToken": "ĠС",
      "priority": 110
    },
    {
      "pair": [
        "люд",
        "ов"
      ],
      "newToken": "людов",
      "priority": 111
    },
    {
      "pair": [
        "ĠН",
        "ех"
      ],
      "newToken": "ĠНех",
      "priority": 112
    },
    {
      "pair": [
        "ен",
        "но"
      ],
      "newToken": "енно",
      "priority": 113
    },
    {
      "pair": [
        "Ġд",
        "у"
      ],
      "newToken": "Ġду",
      "priority": 114
    },
    {
      "pair": [
        "Ġд",
        "о"
      ],
      "newToken": "Ġдо",
      "priority": 115
    },
    {
      "pair": [
        "ĠНех",
        "людов"
      ],
      "newToken": "ĠНехлюдов",
      "priority": 116
    },
    {
      "pair": [
        "ил",
        "ь"
      ],
      "newToken": "иль",
      "priority": 117
    },
    {
      "pair": [
        "Ġска",
        "з"
      ],
      "newToken": "Ġсказ",
      "priority": 118
    },
    {
      "pair": [
        "л",
        "у"
      ],
      "newToken": "лу",
      "priority": 119
    },
    {
      "pair": [
        "х",
        "о"
      ],
      "newToken": "хо",
      "priority": 120
    },
    {
      "pair": [
        "ч",
        "е"
      ],
      "newToken": "че",
      "priority": 121
    },
    {
      "pair": [
        "Ġ",
        "О"
      ],
      "newToken": "ĠО",
      "priority": 122
    },
    {
      "pair": [
        "н",
        "у"
      ],
      "newToken": "ну",
      "priority": 123
    },
    {
      "pair": [
        "ст",
        "ь"
      ],
      "newToken": "сть",
      "priority": 124
    },
    {
      "pair": [
        "Ġо",
        "б"
      ],
      "newToken": "Ġоб",
      "priority": 125
    },
    {
      "pair": [
        "р",
        "ы"
      ],
      "newToken": "ры",
      "priority": 126
    },
    {
      "pair": [
        "ел",
        "ь"
      ],
      "newToken": "ель",
      "priority": 127
    },
    {
      "pair": [
        "ра",
        "в"
      ],
      "newToken": "рав",
      "priority": 128
    },
    {
      "pair": [
        "и",
        ","
      ],
      "newToken": "и,",
      "priority": 129
    },
    {
      "pair": [
        "Ġ",
        "М"
      ],
      "newToken": "ĠМ",
      "priority": 130
    },
    {
      "pair": [
        "ĠВ",
        "ас"
      ],
      "newToken": "ĠВас",
      "priority": 131
    },
    {
      "pair": [
        "д",
        "о"
      ],
      "newToken": "до",
      "priority": 132
    },
    {
      "pair": [
        "ĠВас",
        "иль"
      ],
      "newToken": "ĠВасиль",
      "priority": 133
    },
    {
      "pair": [
        "ĠВасиль",
        "ев"
      ],
      "newToken": "ĠВасильев",
      "priority": 134
    },
    {
      "pair": [
        "я",
        ","
      ],
      "newToken": "я,",
      "priority": 135
    },
    {
      "pair": [
        "Ġе",
        "е"
      ],
      "newToken": "Ġее",
      "priority": 136
    },
    {
      "pair": [
        "е",
        "ж"
      ],
      "newToken": "еж",
      "priority": 137
    },
    {
      "pair": [
        "в",
        "ал"
      ],
      "newToken": "вал",
      "priority": 138
    },
    {
      "pair": [
        "ст",
        "и"
      ],
      "newToken": "сти",
      "priority": 139
    },
    {
      "pair": [
        "ст",
        "во"
      ],
      "newToken": "ство",
      "priority": 140
    },
    {
      "pair": [
        "Ġм",
        "о"
      ],
      "newToken": "Ġмо",
      "priority": 141
    },
    {
      "pair": [
        "н",
        "е"
      ],
      "newToken": "не",
      "priority": 142
    },
    {
      "pair": [
        "ст",
        "в"
      ],
      "newToken": "ств",
      "priority": 143
    },
    {
      "pair": [
        "Ġн",
        "о"
      ],
      "newToken": "Ġно",
      "priority": 144
    },
    {
      "pair": [
        "а",
        "т"
      ],
      "newToken": "ат",
      "priority": 145
    },
    {
      "pair": [
        "Ġра",
        "з"
      ],
      "newToken": "Ġраз",
      "priority": 146
    },
    {
      "pair": [
        "м",
        "о"
      ],
      "newToken": "мо",
      "priority": 147
    },
    {
      "pair": [
        "у",
        "ж"
      ],
      "newToken": "уж",
      "priority": 148
    },
    {
      "pair": [
        "ĠК",
        "о"
      ],
      "newToken": "ĠКо",
      "priority": 149
    },
    {
      "pair": [
        "м",
        ","
      ],
      "newToken": "м,",
      "priority": 150
    },
    {
      "pair": [
        "Ġ",
        "я"
      ],
      "newToken": "Ġя",
      "priority": 151
    },
    {
      "pair": [
        "д",
        "но"
      ],
      "newToken": "дно",
      "priority": 152
    },
    {
      "pair": [
        "к",
        "у"
      ],
      "newToken": "ку",
      "priority": 153
    },
    {
      "pair": [
        "ен",
        "ь"
      ],
      "newToken": "ень",
      "priority": 154
    },
    {
      "pair": [
        "с",
        "п"
      ],
      "newToken": "сп",
      "priority": 155
    },
    {
      "pair": [
        "Ġж",
        "и"
      ],
      "newToken": "Ġжи",
      "priority": 156
    },
    {
      "pair": [
        "н",
        "я"
      ],
      "newToken": "ня",
      "priority": 157
    },
    {
      "pair": [
        ".",
        " –"
      ],
      "newToken": ". –",
      "priority": 158
    },
    {
      "pair": [
        "д",
        "ел"
      ],
      "newToken": "дел",
      "priority": 159
    },
    {
      "pair": [
        "Ġго",
        "вор"
      ],
      "newToken": "Ġговор",
      "priority": 160
    },
    {
      "pair": [
        "и",
        "с"
      ],
      "newToken": "ис",
      "priority": 161
    },
    {
      "pair": [
        "а",
        "р"
      ],
      "newToken": "ар",
      "priority": 162
    },
    {
      "pair": [
        "Ġи",
        "з"
      ],
      "newToken": "Ġиз",
      "priority": 163
    },
    {
      "pair": [
        "Ġ",
        "И"
      ],
      "newToken": "ĠИ",
      "priority": 164
    },
    {
      "pair": [
        "т",
        "у"
      ],
      "newToken": "ту",
      "priority": 165
    },
    {
      "pair": [
        "о",
        "б"
      ],
      "newToken": "об",
      "priority": 166
    },
    {
      "pair": [
        "ĠС",
        "о"
      ],
      "newToken": "ĠСо",
      "priority": 167
    },
    {
      "pair": [
        "ĠСо",
        "ф"
      ],
      "newToken": "ĠСоф",
      "priority": 168
    },
    {
      "pair": [
        "ĠСоф",
        "ь"
      ],
      "newToken": "ĠСофь",
      "priority": 169
    },
    {
      "pair": [
        "ш",
        "и"
      ],
      "newToken": "ши",
      "priority": 170
    },
    {
      "pair": [
        "Ġп",
        "ер"
      ],
      "newToken": "Ġпер",
      "priority": 171
    },
    {
      "pair": [
        "ю",
        ","
      ],
      "newToken": "ю,",
      "priority": 172
    },
    {
      "pair": [
        "Ġ",
        "«"
      ],
      "newToken": "Ġ«",
      "priority": 173
    },
    {
      "pair": [
        "с",
        "ле"
      ],
      "newToken": "сле",
      "priority": 174
    },
    {
      "pair": [
        "Ġп",
        "рав"
      ],
      "newToken": "Ġправ",
      "priority": 175
    },
    {
      "pair": [
        "Ġс",
        "а"
      ],
      "newToken": "Ġса",
      "priority": 176
    },
    {
      "pair": [
        "Ġв",
        "и"
      ],
      "newToken": "Ġви",
      "priority": 177
    },
    {
      "pair": [
        "б",
        "ы"
      ],
      "newToken": "бы",
      "priority": 178
    },
    {
      "pair": [
        "е",
        "."
      ],
      "newToken": "е.",
      "priority": 179
    },
    {
      "pair": [
        "ом",
        "н"
      ],
      "newToken": "омн",
      "priority": 180
    },
    {
      "pair": [
        "к",
        "и"
      ],
      "newToken": "ки",
      "priority": 181
    },
    {
      "pair": [
        "Ġ",
        "а"
      ],
      "newToken": "Ġа",
      "priority": 182
    },
    {
      "pair": [
        "ени",
        "я"
      ],
      "newToken": "ения",
      "priority": 183
    },
    {
      "pair": [
        "ил",
        "а"
      ],
      "newToken": "ила",
      "priority": 184
    },
    {
      "pair": [
        "л",
        "ж"
      ],
      "newToken": "лж",
      "priority": 185
    },
    {
      "pair": [
        "Ġсказ",
        "ала"
      ],
      "newToken": "Ġсказала",
      "priority": 186
    },
    {
      "pair": [
        "Ġс",
        "у"
      ],
      "newToken": "Ġсу",
      "priority": 187
    },
    {
      "pair": [
        "у",
        "в"
      ],
      "newToken": "ув",
      "priority": 188
    },
    {
      "pair": [
        "Ġж",
        "е"
      ],
      "newToken": "Ġже",
      "priority": 189
    },
    {
      "pair": [
        "ин",
        "у"
      ],
      "newToken": "ину",
      "priority": 190
    },
    {
      "pair": [
        "ель",
        "но"
      ],
      "newToken": "ельно",
      "priority": 191
    },
    {
      "pair": [
        "т",
        "и"
      ],
      "newToken": "ти",
      "priority": 192
    },
    {
      "pair": [
        "т",
        "р"
      ],
      "newToken": "тр",
      "priority": 193
    },
    {
      "pair": [
        "Ġ",
        "хо"
      ],
      "newToken": "Ġхо",
      "priority": 194
    },
    {
      "pair": [
        "Ġо",
        "ч"
      ],
      "newToken": "Ġоч",
      "priority": 195
    },
    {
      "pair": [
        "ло",
        "с"
      ],
      "newToken": "лос",
      "priority": 196
    },
    {
      "pair": [
        "м",
        "е"
      ],
      "newToken": "ме",
      "priority": 197
    },
    {
      "pair": [
        "щ",
        "е"
      ],
      "newToken": "ще",
      "priority": 198
    },
    {
      "pair": [
        "а",
        ","
      ],
      "newToken": "а,",
      "priority": 199
    },
    {
      "pair": [
        "з",
        "ы"
      ],
      "newToken": "зы",
      "priority": 200
    },
    {
      "pair": [
        "ĠО",
        "н"
      ],
      "newToken": "ĠОн",
      "priority": 201
    },
    {
      "pair": [
        "Ġко",
        "гда"
      ],
      "newToken": "Ġкогда",
      "priority": 202
    },
    {
      "pair": [
        "ил",
        "и"
      ],
      "newToken": "или",
      "priority": 203
    },
    {
      "pair": [
        "Ġе",
        "му"
      ],
      "newToken": "Ġему",
      "priority": 204
    },
    {
      "pair": [
        "Ġ",
        "з"
      ],
      "newToken": "Ġз",
      "priority": 205
    },
    {
      "pair": [
        "Ġбы",
        "л"
      ],
      "newToken": "Ġбыл",
      "priority": 206
    },
    {
      "pair": [
        "ис",
        "с"
      ],
      "newToken": "исс",
      "priority": 207
    },
    {
      "pair": [
        "ĠМ",
        "исс"
      ],
      "newToken": "ĠМисс",
      "priority": 208
    },
    {
      "pair": [
        "Ġб",
        "о"
      ],
      "newToken": "Ġбо",
      "priority": 209
    },
    {
      "pair": [
        "Ġчто",
        "бы"
      ],
      "newToken": "Ġчтобы",
      "priority": 210
    },
    {
      "pair": [
        "д",
        "я"
      ],
      "newToken": "дя",
      "priority": 211
    },
    {
      "pair": [
        "Ġкото",
        "ро"
      ],
      "newToken": "Ġкоторо",
      "priority": 212
    },
    {
      "pair": [
        "Ġ",
        "А"
      ],
      "newToken": "ĠА",
      "priority": 213
    },
    {
      "pair": [
        "ш",
        "ел"
      ],
      "newToken": "шел",
      "priority": 214
    },
    {
      "pair": [
        "р",
        "е"
      ],
      "newToken": "ре",
      "priority": 215
    },
    {
      "pair": [
        "Ġг",
        "ла"
      ],
      "newToken": "Ġгла",
      "priority": 216
    },
    {
      "pair": [
        "Ġсеб",
        "е"
      ],
      "newToken": "Ġсебе",
      "priority": 217
    },
    {
      "pair": [
        "а",
        "ю"
      ],
      "newToken": "аю",
      "priority": 218
    },
    {
      "pair": [
        "г",
        "и"
      ],
      "newToken": "ги",
      "priority": 219
    },
    {
      "pair": [
        "ит",
        "ельно"
      ],
      "newToken": "ительно",
      "priority": 220
    },
    {
      "pair": [
        "ь",
        ","
      ],
      "newToken": "ь,",
      "priority": 221
    },
    {
      "pair": [
        "ĠВасильев",
        "на"
      ],
      "newToken": "ĠВасильевна",
      "priority": 222
    },
    {
      "pair": [
        "п",
        "о"
      ],
      "newToken": "по",
      "priority": 223
    },
    {
      "pair": [
        "с",
        "то"
      ],
      "newToken": "сто",
      "priority": 224
    },
    {
      "pair": [
        "ĠКо",
        "лос"
      ],
      "newToken": "ĠКолос",
      "priority": 225
    },
    {
      "pair": [
        "ĠКолос",
        "ов"
      ],
      "newToken": "ĠКолосов",
      "priority": 226
    },
    {
      "pair": [
        "с",
        "ку"
      ],
      "newToken": "ску",
      "priority": 227
    },
    {
      "pair": [
        "Ġг",
        "а"
      ],
      "newToken": "Ġга",
      "priority": 228
    },
    {
      "pair": [
        "Ġгла",
        "за"
      ],
      "newToken": "Ġглаза",
      "priority": 229
    },
    {
      "pair": [
        "ĠСофь",
        "я"
      ],
      "newToken": "ĠСофья",
      "priority": 230
    },
    {
      "pair": [
        "еж",
        "ду"
      ],
      "newToken": "ежду",
      "priority": 231
    },
    {
      "pair": [
        "Ġкото",
        "ры"
      ],
      "newToken": "Ġкоторы",
      "priority": 232
    },
    {
      "pair": [
        "Ġч",
        "ув"
      ],
      "newToken": "Ġчув",
      "priority": 233
    },
    {
      "pair": [
        "ны",
        "ми"
      ],
      "newToken": "ными",
      "priority": 234
    },
    {
      "pair": [
        "омн",
        "ил"
      ],
      "newToken": "омнил",
      "priority": 235
    },
    {
      "pair": [
        "Ġвс",
        "е"
      ],
      "newToken": "Ġвсе",
      "priority": 236
    },
    {
      "pair": [
        "Ġс",
        "о"
      ],
      "newToken": "Ġсо",
      "priority": 237
    },
    {
      "pair": [
        "но",
        ","
      ],
      "newToken": "но,",
      "priority": 238
    },
    {
      "pair": [
        "Ġд",
        "ру"
      ],
      "newToken": "Ġдру",
      "priority": 239
    },
    {
      "pair": [
        "сле",
        "д"
      ],
      "newToken": "след",
      "priority": 240
    },
    {
      "pair": [
        "Ġс",
        "дел"
      ],
      "newToken": "Ġсдел",
      "priority": 241
    },
    {
      "pair": [
        "Ġт",
        "ем"
      ],
      "newToken": "Ġтем",
      "priority": 242
    },
    {
      "pair": [
        "Ġмо",
        "г"
      ],
      "newToken": "Ġмог",
      "priority": 243
    },
    {
      "pair": [
        "Ġм",
        "ежду"
      ],
      "newToken": "Ġмежду",
      "priority": 244
    },
    {
      "pair": [
        "ра",
        "с"
      ],
      "newToken": "рас",
      "priority": 245
    },
    {
      "pair": [
        "Ġбы",
        "ла"
      ],
      "newToken": "Ġбыла",
      "priority": 246
    },
    {
      "pair": [
        "че",
        "го"
      ],
      "newToken": "чего",
      "priority": 247
    },
    {
      "pair": [
        "е",
        "п"
      ],
      "newToken": "еп",
      "priority": 248
    },
    {
      "pair": [
        "Ġсказ",
        "ал"
      ],
      "newToken": "Ġсказал",
      "priority": 249
    },
    {
      "pair": [
        "ени",
        "е"
      ],
      "newToken": "ение",
      "priority": 250
    },
    {
      "pair": [
        "Ġ",
        "П"
      ],
      "newToken": "ĠП",
      "priority": 251
    },
    {
      "pair": [
        "ж",
        "е"
      ],
      "newToken": "же",
      "priority": 252
    },
    {
      "pair": [
        "б",
        "о"
      ],
      "newToken": "бо",
      "priority": 253
    },
    {
      "pair": [
        "ат",
        "ер"
      ],
      "newToken": "атер",
      "priority": 254
    },
    {
      "pair": [
        "Ġвс",
        "п"
      ],
      "newToken": "Ġвсп",
      "priority": 255
    },
    {
      "pair": [
        "ль",
        "ко"
      ],
      "newToken": "лько",
      "priority": 256
    },
    {
      "pair": [
        "е",
        "з"
      ],
      "newToken": "ез",
      "priority": 257
    },
    {
      "pair": [
        "ны",
        "й"
      ],
      "newToken": "ный",
      "priority": 258
    },
    {
      "pair": [
        "ст",
        "ав"
      ],
      "newToken": "став",
      "priority": 259
    },
    {
      "pair": [
        "ы",
        "дно"
      ],
      "newToken": "ыдно",
      "priority": 260
    },
    {
      "pair": [
        "у",
        "ю"
      ],
      "newToken": "ую",
      "priority": 261
    },
    {
      "pair": [
        "Ġжи",
        "з"
      ],
      "newToken": "Ġжиз",
      "priority": 262
    },
    {
      "pair": [
        "Ġс",
        "ле"
      ],
      "newToken": "Ġсле",
      "priority": 263
    },
    {
      "pair": [
        "Ġво",
        "з"
      ],
      "newToken": "Ġвоз",
      "priority": 264
    },
    {
      "pair": [
        "м",
        "ал"
      ],
      "newToken": "мал",
      "priority": 265
    },
    {
      "pair": [
        "ч",
        "и"
      ],
      "newToken": "чи",
      "priority": 266
    },
    {
      "pair": [
        "Ġвсп",
        "омнил"
      ],
      "newToken": "Ġвспомнил",
      "priority": 267
    },
    {
      "pair": [
        "Ġс",
        "ов"
      ],
      "newToken": "Ġсов",
      "priority": 268
    },
    {
      "pair": [
        "Ġс",
        "то"
      ],
      "newToken": "Ġсто",
      "priority": 269
    },
    {
      "pair": [
        "з",
        "на"
      ],
      "newToken": "зна",
      "priority": 270
    },
    {
      "pair": [
        "Ġд",
        "ля"
      ],
      "newToken": "Ġдля",
      "priority": 271
    },
    {
      "pair": [
        "д",
        "ы"
      ],
      "newToken": "ды",
      "priority": 272
    },
    {
      "pair": [
        "Ġст",
        "ал"
      ],
      "newToken": "Ġстал",
      "priority": 273
    },
    {
      "pair": [
        "Ġот",
        "в"
      ],
      "newToken": "Ġотв",
      "priority": 274
    },
    {
      "pair": [
        "Ġсеб",
        "я"
      ],
      "newToken": "Ġсебя",
      "priority": 275
    },
    {
      "pair": [
        "Ġв",
        "е"
      ],
      "newToken": "Ġве",
      "priority": 276
    },
    {
      "pair": [
        "Ġвс",
        "ё"
      ],
      "newToken": "Ġвсё",
      "priority": 277
    },
    {
      "pair": [
        "Ġ",
        "ру"
      ],
      "newToken": "Ġру",
      "priority": 278
    },
    {
      "pair": [
        "ш",
        "е"
      ],
      "newToken": "ше",
      "priority": 279
    },
    {
      "pair": [
        "ч",
        "а"
      ],
      "newToken": "ча",
      "priority": 280
    },
    {
      "pair": [
        "и",
        "м"
      ],
      "newToken": "им",
      "priority": 281
    },
    {
      "pair": [
        "ся",
        ","
      ],
      "newToken": "ся,",
      "priority": 282
    },
    {
      "pair": [
        "Ġ",
        "Д"
      ],
      "newToken": "ĠД",
      "priority": 283
    },
    {
      "pair": [
        "Ġ",
        "Р"
      ],
      "newToken": "ĠР",
      "priority": 284
    },
    {
      "pair": [
        "ел",
        "о"
      ],
      "newToken": "ело",
      "priority": 285
    },
    {
      "pair": [
        "-",
        "то"
      ],
      "newToken": "-то",
      "priority": 286
    },
    {
      "pair": [
        "Ġто",
        "лько"
      ],
      "newToken": "Ġтолько",
      "priority": 287
    },
    {
      "pair": [
        "»",
        ","
      ],
      "newToken": "»,",
      "priority": 288
    },
    {
      "pair": [
        "Ġто",
        ","
      ],
      "newToken": "Ġто,",
      "priority": 289
    },
    {
      "pair": [
        "го",
        ","
      ],
      "newToken": "го,",
      "priority": 290
    },
    {
      "pair": [
        "Ġса",
        "м"
      ],
      "newToken": "Ġсам",
      "priority": 291
    },
    {
      "pair": [
        "го",
        "вор"
      ],
      "newToken": "говор",
      "priority": 292
    },
    {
      "pair": [
        "ство",
        "вал"
      ],
      "newToken": "ствовал",
      "priority": 293
    },
    {
      "pair": [
        "и",
        "в"
      ],
      "newToken": "ив",
      "priority": 294
    },
    {
      "pair": [
        "м",
        "а"
      ],
      "newToken": "ма",
      "priority": 295
    },
    {
      "pair": [
        "л",
        "ы"
      ],
      "newToken": "лы",
      "priority": 296
    },
    {
      "pair": [
        "но",
        "ш"
      ],
      "newToken": "нош",
      "priority": 297
    },
    {
      "pair": [
        "Ġот",
        "нош"
      ],
      "newToken": "Ġотнош",
      "priority": 298
    },
    {
      "pair": [
        "б",
        "у"
      ],
      "newToken": "бу",
      "priority": 299
    },
    {
      "pair": [
        "на",
        ","
      ],
      "newToken": "на,",
      "priority": 300
    },
    {
      "pair": [
        "Ġст",
        "ра"
      ],
      "newToken": "Ġстра",
      "priority": 301
    },
    {
      "pair": [
        "ер",
        "ь"
      ],
      "newToken": "ерь",
      "priority": 302
    },
    {
      "pair": [
        "д",
        "ить"
      ],
      "newToken": "дить",
      "priority": 303
    },
    {
      "pair": [
        "уж",
        "д"
      ],
      "newToken": "ужд",
      "priority": 304
    },
    {
      "pair": [
        "но",
        "в"
      ],
      "newToken": "нов",
      "priority": 305
    },
    {
      "pair": [
        "ко",
        "м"
      ],
      "newToken": "ком",
      "priority": 306
    },
    {
      "pair": [
        "ас",
        "ь"
      ],
      "newToken": "ась",
      "priority": 307
    },
    {
      "pair": [
        "д",
        "ко"
      ],
      "newToken": "дко",
      "priority": 308
    },
    {
      "pair": [
        "Ġга",
        "дко"
      ],
      "newToken": "Ġгадко",
      "priority": 309
    },
    {
      "pair": [
        "г",
        "ин"
      ],
      "newToken": "гин",
      "priority": 310
    },
    {
      "pair": [
        "ня",
        "гин"
      ],
      "newToken": "нягин",
      "priority": 311
    },
    {
      "pair": [
        "Ġду",
        "р"
      ],
      "newToken": "Ġдур",
      "priority": 312
    },
    {
      "pair": [
        "р",
        "я"
      ],
      "newToken": "ря",
      "priority": 313
    },
    {
      "pair": [
        "в",
        "е"
      ],
      "newToken": "ве",
      "priority": 314
    },
    {
      "pair": [
        "ст",
        "а"
      ],
      "newToken": "ста",
      "priority": 315
    },
    {
      "pair": [
        "Ġн",
        "ы"
      ],
      "newToken": "Ġны",
      "priority": 316
    },
    {
      "pair": [
        "ж",
        "у"
      ],
      "newToken": "жу",
      "priority": 317
    },
    {
      "pair": [
        "Ġе",
        "й"
      ],
      "newToken": "Ġей",
      "priority": 318
    },
    {
      "pair": [
        "Ġо",
        "с"
      ],
      "newToken": "Ġос",
      "priority": 319
    },
    {
      "pair": [
        "р",
        "ем"
      ],
      "newToken": "рем",
      "priority": 320
    },
    {
      "pair": [
        "щ",
        "и"
      ],
      "newToken": "щи",
      "priority": 321
    },
    {
      "pair": [
        "Ġоч",
        "ень"
      ],
      "newToken": "Ġочень",
      "priority": 322
    },
    {
      "pair": [
        "ны",
        "е"
      ],
      "newToken": "ные",
      "priority": 323
    },
    {
      "pair": [
        "в",
        "и"
      ],
      "newToken": "ви",
      "priority": 324
    },
    {
      "pair": [
        "Ġм",
        "ен"
      ],
      "newToken": "Ġмен",
      "priority": 325
    },
    {
      "pair": [
        "ал",
        "ь"
      ],
      "newToken": "аль",
      "priority": 326
    },
    {
      "pair": [
        "то",
        "м"
      ],
      "newToken": "том",
      "priority": 327
    },
    {
      "pair": [
        "ра",
        "щ"
      ],
      "newToken": "ращ",
      "priority": 328
    },
    {
      "pair": [
        "ел",
        "и"
      ],
      "newToken": "ели",
      "priority": 329
    },
    {
      "pair": [
        "ж",
        "но"
      ],
      "newToken": "жно",
      "priority": 330
    },
    {
      "pair": [
        "ĠМисс",
        "и"
      ],
      "newToken": "ĠМисси",
      "priority": 331
    },
    {
      "pair": [
        "сь",
        ","
      ],
      "newToken": "сь,",
      "priority": 332
    },
    {
      "pair": [
        "Ġхо",
        "т"
      ],
      "newToken": "Ġхот",
      "priority": 333
    },
    {
      "pair": [
        "Ġст",
        "ыдно"
      ],
      "newToken": "Ġстыдно",
      "priority": 334
    },
    {
      "pair": [
        "Ġпр",
        "ед"
      ],
      "newToken": "Ġпред",
      "priority": 335
    },
    {
      "pair": [
        "е",
        "ш"
      ],
      "newToken": "еш",
      "priority": 336
    },
    {
      "pair": [
        "Ġду",
        "х"
      ],
      "newToken": "Ġдух",
      "priority": 337
    },
    {
      "pair": [
        "ени",
        "и"
      ],
      "newToken": "ении",
      "priority": 338
    },
    {
      "pair": [
        "Ġне",
        "го"
      ],
      "newToken": "Ġнего",
      "priority": 339
    },
    {
      "pair": [
        "Ġговор",
        "ил"
      ],
      "newToken": "Ġговорил",
      "priority": 340
    },
    {
      "pair": [
        "Ġ",
        "лу"
      ],
      "newToken": "Ġлу",
      "priority": 341
    },
    {
      "pair": [
        "Ġжи",
        "во"
      ],
      "newToken": "Ġживо",
      "priority": 342
    },
    {
      "pair": [
        "Ġ",
        "лю"
      ],
      "newToken": "Ġлю",
      "priority": 343
    },
    {
      "pair": [
        "Ġтак",
        "о"
      ],
      "newToken": "Ġтако",
      "priority": 344
    },
    {
      "pair": [
        "Ġто",
        "гда"
      ],
      "newToken": "Ġтогда",
      "priority": 345
    },
    {
      "pair": [
        "в",
        "ы"
      ],
      "newToken": "вы",
      "priority": 346
    },
    {
      "pair": [
        "ра",
        "ж"
      ],
      "newToken": "раж",
      "priority": 347
    },
    {
      "pair": [
        "Ġб",
        "ез"
      ],
      "newToken": "Ġбез",
      "priority": 348
    },
    {
      "pair": [
        "Ġп",
        "а"
      ],
      "newToken": "Ġпа",
      "priority": 349
    },
    {
      "pair": [
        "Ġд",
        "ень"
      ],
      "newToken": "Ġдень",
      "priority": 350
    },
    {
      "pair": [
        "ĠП",
        "о"
      ],
      "newToken": "ĠПо",
      "priority": 351
    },
    {
      "pair": [
        "Ġто",
        "т"
      ],
      "newToken": "Ġтот",
      "priority": 352
    },
    {
      "pair": [
        "Ġм",
        "н"
      ],
      "newToken": "Ġмн",
      "priority": 353
    },
    {
      "pair": [
        "Ġны",
        "н"
      ],
      "newToken": "Ġнын",
      "priority": 354
    },
    {
      "pair": [
        "мо",
        "тр"
      ],
      "newToken": "мотр",
      "priority": 355
    },
    {
      "pair": [
        "Ġи",
        ","
      ],
      "newToken": "Ġи,",
      "priority": 356
    },
    {
      "pair": [
        "а",
        "."
      ],
      "newToken": "а.",
      "priority": 357
    },
    {
      "pair": [
        "или",
        "п"
      ],
      "newToken": "илип",
      "priority": 358
    },
    {
      "pair": [
        "Ф",
        "илип"
      ],
      "newToken": "Филип",
      "priority": 359
    },
    {
      "pair": [
        "Ġг",
        "ру"
      ],
      "newToken": "Ġгру",
      "priority": 360
    },
    {
      "pair": [
        "т",
        "ы"
      ],
      "newToken": "ты",
      "priority": 361
    },
    {
      "pair": [
        "ит",
        "е"
      ],
      "newToken": "ите",
      "priority": 362
    },
    {
      "pair": [
        "с",
        "е"
      ],
      "newToken": "се",
      "priority": 363
    },
    {
      "pair": [
        "Ġсво",
        "и"
      ],
      "newToken": "Ġсвои",
      "priority": 364
    },
    {
      "pair": [
        "у",
        "т"
      ],
      "newToken": "ут",
      "priority": 365
    },
    {
      "pair": [
        "Ġпер",
        "ед"
      ],
      "newToken": "Ġперед",
      "priority": 366
    },
    {
      "pair": [
        "Ġ",
        "Филип"
      ],
      "newToken": "ĠФилип",
      "priority": 367
    },
    {
      "pair": [
        "ĠФилип",
        "п"
      ],
      "newToken": "ĠФилипп",
      "priority": 368
    },
    {
      "pair": [
        "Ġне",
        "й,"
      ],
      "newToken": "Ġней,",
      "priority": 369
    },
    {
      "pair": [
        "ны",
        "м"
      ],
      "newToken": "ным",
      "priority": 370
    },
    {
      "pair": [
        "ю",
        "."
      ],
      "newToken": "ю.",
      "priority": 371
    },
    {
      "pair": [
        "Ġу",
        "же"
      ],
      "newToken": "Ġуже",
      "priority": 372
    },
    {
      "pair": [
        "у",
        ","
      ],
      "newToken": "у,",
      "priority": 373
    },
    {
      "pair": [
        "Ġт",
        "еп"
      ],
      "newToken": "Ġтеп",
      "priority": 374
    },
    {
      "pair": [
        "Ġко",
        "м"
      ],
      "newToken": "Ġком",
      "priority": 375
    },
    {
      "pair": [
        "Ġком",
        "на"
      ],
      "newToken": "Ġкомна",
      "priority": 376
    },
    {
      "pair": [
        "в",
        "ать"
      ],
      "newToken": "вать",
      "priority": 377
    },
    {
      "pair": [
        "Ġс",
        "об"
      ],
      "newToken": "Ġсоб",
      "priority": 378
    },
    {
      "pair": [
        "Ġо",
        "д"
      ],
      "newToken": "Ġод",
      "priority": 379
    },
    {
      "pair": [
        "ĠК",
        "ак"
      ],
      "newToken": "ĠКак",
      "priority": 380
    },
    {
      "pair": [
        "ми",
        ","
      ],
      "newToken": "ми,",
      "priority": 381
    },
    {
      "pair": [
        "Ġо",
        "к"
      ],
      "newToken": "Ġок",
      "priority": 382
    },
    {
      "pair": [
        "Ġпри",
        "зна"
      ],
      "newToken": "Ġпризна",
      "priority": 383
    },
    {
      "pair": [
        "Ġона",
        ","
      ],
      "newToken": "Ġона,",
      "priority": 384
    },
    {
      "pair": [
        "нягин",
        "я"
      ],
      "newToken": "нягиня",
      "priority": 385
    }
  ]
}