{
  "kind": 1,
  "vocab": {
    "##юдо": 313,
    "x": 7,
    "##ной": 468,
    "##ами": 377,
    "[PAD]": 0,
    "##ми": 248,
    "##ение": 419,
    "## –": 246,
    "##ту": 404,
    "6": 13,
    "##аж": 475,
    "Ж": 14,
    "A": 15,
    "##еб": 387,
    "##ом,": 482,
    "ж": 23,
    "##его": 367,
    "##ани": 420,
    "Y": 28,
    "W": 29,
    "##ри": 217,
    "##ько": 416,
    "##й": 186,
    "##во": 207,
    "##вор": 362,
    "д": 41,
    "##ны": 237,
    "##иц": 448,
    "##ост": 281,
    "##дел": 449,
    "В": 42,
    "і": 43,
    "##ош": 386,
    "##н": 170,
    "##ех": 268,
    "I": 51,
    "B": 52,
    "##ое": 275,
    "##ие": 263,
    "##ли": 215,
    "л": 63,
    "##п": 200,
    "##ого": 279,
    "##вл": 470,
    "##ом": 213,
    "ь": 71,
    "##?": 408,
    "##дн": 351,
    "##та": 222,
    "##еш": 483,
    "L": 77,
    "##мо": 331,
    "##не": 290,
    "ч": 80,
    "[MASK]": 4,
    "г": 82,
    "O": 86,
    "##тр": 230,
    "##уд": 359,
    "##люд": 310,
    "##сть": 439,
    "##ите": 396,
    "##тор": 292,
    "##олько": 455,
    "##ив": 280,
    "##казал": 370,
    "##ий": 414,
    "Ц": 99,
    "##ол": 209,
    "8": 103,
    "ф": 105,
    "##ы": 179,
    "##вал": 380,
    "##том": 438,
    "7": 108,
    "##ала": 340,
    "S": 114,
    "##он": 293,
    "##вер": 450,
    "##ни": 202,
    "##ра": 219,
    "##лов": 284,
    "##ле": 243,
    "##же": 312,
    "##ре": 212,
    "9": 122,
    "##за": 270,
    "##а": 166,
    "##каз": 307,
    "!": 125,
    "i": 126,
    "б": 127,
    "##рь": 458,
    "f": 129,
    "##че": 278,
    "##ят": 374,
    "é": 133,
    "H": 134,
    "##ач": 484,
    "##ц": 283,
    "##ер": 206,
    "##пр": 360,
    "##ем": 247,
    "Ь": 138,
    "##ик": 315,
    "##тве": 473,
    "́": 141,
    "##ви": 274,
    "##ние": 354,
    "##нов": 491,
    "##лся": 429,
    "##ро": 195,
    "è": 156,
    "Ч": 155,
    "ỳ": 157,
    "##ев": 336,
    "l": 158,
    "##ово": 302,
    "##ин": 252,
    "##льн": 372,
    "##ши": 337,
    "V": 6,
    "##ова": 282,
    "##ше": 273,
    "##ча": 309,
    "##е.": 456,
    "##лен": 417,
    "##ар": 266,
    "##ор": 204,
    "Е": 16,
    ")": 17,
    "Г": 18,
    "Р": 19,
    "b": 20,
    "##к": 177,
    "##ю": 196,
    "##ж": 203,
    "##ред": 399,
    "в": 25,
    "##ва": 208,
    "##кой": 453,
    "##аз": 232,
    "(": 30,
    ".": 31,
    "F": 32,
    "ê": 35,
    "##, –": 294,
    "<": 39,
    "##ск": 298,
    "р": 37,
    "##людо": 314,
    "##оч": 389,
    "P": 40,
    "##тн": 426,
    "##ид": 338,
    "##с": 172,
    ";": 44,
    "##ве": 241,
    "е": 45,
    "##ис": 286,
    "##м": 175,
    "##, ": 295,
    "R": 53,
    "[": 55,
    "ы": 56,
    "e": 57,
    "à": 61,
    "Э": 59,
    "Ф": 60,
    "q": 62,
    "##им": 267,
    "с": 64,
    "##ди": 287,
    "##овор": 412,
    "*": 67,
    "##ду": 430,
    "Ш": 69,
    "##си": 423,
    "Ι": 70,
    " ": 74,
    ",": 75,
    "##ате": 494,
    "##щ": 250,
    "##оп": 499,
    "##вори": 496,
    "…": 79,
    "##ну": 345,
    "##ат": 218,
    "T": 85,
    "##у": 178,
    "щ": 89,
    "я": 90,
    "##до": 234,
    "##ьс": 471,
    "##хо": 432,
    "п": 94,
    "J": 96,
    "##. –": 481,
    "П": 98,
    "##о": 164,
    "т": 101,
    "Я": 104,
    "##ове": 407,
    "##сто": 371,
    "к": 115,
    "Х": 116,
    "М": 117,
    "##ок": 264,
    "##ать": 299,
    "##ка": 214,
    "##ры": 353,
    "[SEP]": 3,
    "##ки": 261,
    "##да": 239,
    ":": 128,
    "##ехлюд": 323,
    "##жн": 405,
    "##ах": 451,
    "Щ": 130,
    "##гда": 466,
    "##хлюдо": 320,
    "##ож": 343,
    "О": 132,
    "##чи": 349,
    "##ел": 199,
    "##те": 236,
    "##ый": 350,
    "##ых": 363,
    "##ьн": 373,
    "##ил": 224,
    "з": 136,
    "##ек": 384,
    "##ез": 424,
    "##ав": 245,
    "##нны": 428,
    "##лы": 489,
    "##аза": 296,
    "##юдов": 317,
    "##а,": 257,
    "##хлюдов": 321,
    "##ку": 392,
    "##у,": 356,
    "##лько": 433,
    "ô": 142,
    "##лс": 395,
    "M": 143,
    "##об": 306,
    "##еп": 442,
    "##лю": 271,
    "a": 150,
    "н": 146,
    "X": 147,
    "Д": 148,
    "##.": 182,
    "##ств": 304,
    "v": 151,
    "##ял": 477,
    "##г": 184,
    "##нн": 254,
    "##ыл": 259,
    "##ал": 189,
    "##щи": 406,
    "##ния": 409,
    "И": 163,
    "##ить": 369,
    "##ори": 410,
    "##зн": 393,
    "##гд": 460,
    "##тво": 472,
    "у": 10,
    "а": 11,
    "##юд": 269,
    "##ич": 398,
    "##ед": 255,
    "##вш": 403,
    "##му": 301,
    "##жа": 382,
    "##ыло": 436,
    "N": 24,
    "##али": 381,
    "##тель": 397,
    "##ты": 400,
    "##ые": 368,
    "d": 26,
    "##нно": 347,
    "##бе": 378,
    "##ия": 341,
    "##уг": 457,
    "k": 38,
    "##ло": 201,
    "##енн": 289,
    "##льк": 427,
    "0": 46,
    "##. ": 478,
    "##б": 194,
    "##о,": 260,
    "##ег": 326,
    "##ест": 276,
    "##ля": 334,
    "/": 54,
    "##м,": 335,
    "t": 68,
    "##,": 174,
    "##тр.": 441,
    "p": 72,
    "##от": 221,
    "##из": 486,
    "r": 76,
    "##е,": 272,
    "##отор": 365,
    "[CLS]": 2,
    "##вы": 487,
    "##рок": 383,
    "##бр": 492,
    "##ам": 253,
    "##ша": 474,
    "##ме": 277,
    "##ой": 227,
    "##ока": 461,
    "##ольк": 452,
    "4": 87,
    "w": 92,
    "##тел": 327,
    "o": 95,
    "##тро": 352,
    "##ыва": 485,
    "y": 102,
    "â": 110,
    "##ь": 180,
    "І": 107,
    "##рав": 488,
    "##ль": 226,
    "##ее": 480,
    "m": 111,
    "ц": 112,
    "##ело": 402,
    "##ае": 464,
    "##бо": 440,
    "А": 118,
    "З": 119,
    "##ым": 328,
    "##ма": 346,
    "Б": 123,
    "##ще": 357,
    "##но": 191,
    "##каза": 342,
    "##го": 205,
    "э": 131,
    "##ти": 242,
    "##–": 244,
    "##я,": 366,
    "##ным": 446,
    "##ьк": 390,
    "##и.": 435,
    "##ву": 447,
    "##ч": 193,
    "##тв": 262,
    "##ад": 333,
    "##се": 311,
    "##хл": 308,
    "##сп": 415,
    "##аю": 479,
    "##ан": 240,
    "##рес": 454,
    "5": 154,
    "##уж": 431,
    "##оло": 364,
    "##ила": 469,
    "##их": 385,
    "ю": 5,
    "##ую": 421,
    "##оз": 445,
    "ё": 8,
    "3": 9,
    "##х": 192,
    "-": 12,
    "## ": 238,
    "##на": 216,
    "##ыв": 437,
    "##хлю": 319,
    "У": 21,
    "##й,": 355,
    "K": 22,
    "##то": 183,
    "]": 27,
    "##оль": 329,
    "ç": 36,
    "C": 34,
    "c": 33,
    "##ш": 197,
    "##людов": 318,
    "##ит": 233,
    "##ель": 344,
    "##де": 249,
    "##ись": 490,
    "##р.": 413,
    "##ся": 251,
    "##ела": 379,
    "Й": 47,
    "?": 48,
    "С": 49,
    "E": 50,
    "##од": 231,
    "##ас": 235,
    "##ехлю": 324,
    "##ап": 493,
    "##ет": 229,
    "s": 58,
    "##р": 171,
    "##лос": 462,
    "’": 66,
    "х": 65,
    "##дов": 285,
    "##нос": 498,
    "##ть": 211,
    "##жи": 467,
    "##ак": 223,
    "–": 73,
    "##ов": 185,
    "##ла": 198,
    "##и,": 288,
    "##о.": 463,
    "##ут": 459,
    "##ог": 225,
    "##ени": 265,
    "##нь": 422,
    "##азал": 361,
    "##д": 176,
    "Q": 78,
    "##по": 375,
    "ò": 81,
    "##з": 187,
    "К": 84,
    "g": 83,
    "D": 93,
    "—": 88,
    "j": 91,
    "##я": 181,
    "##сти": 391,
    "##енно": 401,
    "Ы": 97,
    "##ител": 476,
    "##ере": 348,
    "№": 100,
    "##ая": 258,
    "##ня": 394,
    "Ю": 106,
    "z": 109,
    "##е": 165,
    "##ей": 297,
    "##ь,": 339,
    "##в": 173,
    "«": 113,
    "##оро": 305,
    "2": 120,
    "##ру": 332,
    "о": 121,
    "##ко": 220,
    "##-": 388,
    "##рос": 434,
    "##сь": 256,
    "##:": 303,
    "h": 124,
    "##л": 169,
    "##ехлюдо": 325,
    "##ос": 210,
    "##пе": 425,
    "ъ": 135,
    "##т": 168,
    "##ст": 188,
    ">": 137,
    "##сн": 495,
    "##ен": 190,
    "##лу": 411,
    "u": 139,
    "Л": 140,
    "##хлюд": 322,
    "##ехл": 316,
    "##ум": 497,
    "1": 144,
    "м": 145,
    "##ста": 330,
    "##тал": 465,
    "##вн": 418,
    "й": 149,
    "[UNK]": 1,
    "##ес": 228,
    "##сл": 300,
    "Н": 152,
    "Т": 153,
    "##и": 167,
    "##зал": 358,
    "##трок": 444,
    "##а.": 376,
    "##со": 443,
    "»": 159,
    "и": 160,
    "##ото": 291,
    "ш": 161,
    "n": 162
  },
  "specialTokens": {
    "padToken": "[PAD]",
    "unkToken": "[UNK]",
    "bosToken": "[CLS]",
    "eosToken": "[SEP]",
    "sepToken": "[SEP]",
    "clsToken": "[CLS]",
    "maskToken": "[MASK]"
  },
  "specialTokenIds": {
    "[PAD]": 0,
    "[UNK]": 1,
    "[CLS]": 2,
    "[SEP]": 3,
    "[MASK]": 4
  },
  "continuingSubwordPrefix": "##",
  "maxInputCharsPerWord": 100,
  "preserveCase": true
}