{
  "kind": 1,
  "vocab": {
    "##юдо": 322,
    "x": 6,
    "##ной": 387,
    "##ами": 384,
    "[PAD]": 0,
    "##ми": 200,
    "##ворил": 421,
    "##ение": 430,
    "##итель": 468,
    "## –": 178,
    "##ту": 323,
    "6": 11,
    "##аж": 348,
    "##ься": 450,
    "Ж": 12,
    "A": 13,
    "##еб": 262,
    "ж": 20,
    "##тельн": 437,
    "##его": 275,
    "##ани": 465,
    "##ри": 172,
    "##рил": 381,
    "##й": 134,
    "##во": 143,
    "##вор": 240,
    "д": 29,
    "##ны": 198,
    "##ост": 211,
    "##дел": 374,
    "В": 30,
    "##ош": 337,
    "##н": 115,
    "##ех": 250,
    "##ое": 206,
    "##ться": 456,
    "##ельно": 474,
    "##ие": 219,
    "##ли": 177,
    "##ения": 420,
    "##зала": 486,
    "л": 43,
    "##п": 153,
    "##ого": 243,
    "##вл": 457,
    "##ом": 154,
    "ь": 47,
    "##?": 447,
    "##ьно": 357,
    "##дн": 226,
    "##ильев": 369,
    "##та": 183,
    "##ако": 438,
    "##евн": 292,
    "##мо": 288,
    "##ину": 491,
    "##не": 199,
    "ч": 54,
    "[MASK]": 4,
    "г": 56,
    "##тр": 269,
    "##спо": 410,
    "##уд": 340,
    "##люд": 302,
    "##сть": 335,
    "##ите": 284,
    "##лье": 360,
    "##тор": 222,
    "##ив": 263,
    "##казал": 303,
    "##ол": 169,
    "8": 67,
    "ф": 66,
    "##ы": 128,
    "##вал": 329,
    "##том": 434,
    "7": 68,
    "##ала": 252,
    "##он": 397,
    "##ни": 145,
    "##ра": 156,
    "##ле": 180,
    "##же": 239,
    "##ре": 167,
    "9": 79,
    "##за": 186,
    "##а": 113,
    "##каз": 254,
    "!": 82,
    "i": 83,
    "б": 84,
    "##тьс": 466,
    "##рь": 494,
    "f": 86,
    "##че": 218,
    "##оше": 440,
    "##e": 422,
    "##ц": 264,
    "##ильевн": 364,
    "##ер": 164,
    "##дно": 383,
    "##ем": 185,
    "##пр": 458,
    "##тре": 462,
    "##ик": 330,
    "##омн": 294,
    "##ви": 255,
    "##ние": 299,
    "##лся": 441,
    "##ро": 161,
    "##ьевн": 363,
    "##ости": 416,
    "è": 103,
    "Ч": 102,
    "##аси": 372,
    "##ев": 223,
    "l": 105,
    "##ово": 245,
    "##ин": 187,
    "##льн": 256,
    "##ши": 349,
    "##ова": 280,
    "##ше": 203,
    "##ча": 371,
    "##е.": 395,
    "##казала": 476,
    "##ар": 328,
    "##ор": 148,
    "Е": 14,
    "b": 18,
    "Г": 16,
    "Р": 17,
    ")": 19,
    "##к": 126,
    "##ж": 140,
    "##ю": 141,
    "##ред": 391,
    "##»": 436,
    "в": 21,
    "##ва": 173,
    "##аз": 165,
    "(": 23,
    ".": 24,
    "##, –": 235,
    "##людо": 320,
    "##ой,": 475,
    "##ск": 291,
    "р": 27,
    "##огд": 282,
    "##тн": 362,
    "P": 28,
    "##ид": 350,
    "##с": 118,
    "##евна": 487,
    ";": 31,
    "##ве": 208,
    "е": 32,
    "##ис": 220,
    "##силье": 365,
    "##м": 124,
    "##, ": 234,
    "ы": 36,
    "e": 37,
    "##ди": 225,
    "Э": 39,
    "Ф": 40,
    "##им": 233,
    "##овор": 266,
    "с": 42,
    "##ду": 296,
    "Ш": 46,
    "##си": 214,
    "##на,": 418,
    "##рн": 333,
    " ": 50,
    ",": 51,
    "##ате": 492,
    "##но,": 463,
    "##щ": 193,
    "##ьев": 338,
    "##вори": 307,
    "##вна": 488,
    "##ость": 445,
    "…": 53,
    "##ну": 237,
    "##ат": 160,
    "##ье": 247,
    "##у": 122,
    "щ": 58,
    "я": 59,
    "##до": 196,
    "##ьс": 429,
    "##увств": 477,
    "п": 61,
    "##. –": 398,
    "П": 63,
    "##о": 111,
    "т": 64,
    "##вое": 478,
    "Я": 65,
    "##ове": 461,
    "##сто": 495,
    "к": 72,
    "Х": 73,
    "М": 74,
    "##ать": 212,
    "##ок": 334,
    "##ка": 181,
    "##ры": 344,
    "##ф": 336,
    "[SEP]": 3,
    "##ки": 242,
    "##да": 184,
    ":": 85,
    "##гда": 244,
    "##ехлюд": 319,
    "##жн": 394,
    "##хлюдо": 324,
    "##иль": 314,
    "##ый": 343,
    "О": 88,
    "##ьн": 257,
    "##ел": 152,
    "##те": 174,
    "##чи": 361,
    "##еж": 342,
    "##ез": 377,
    "##ил": 149,
    "з": 90,
    "##ож": 432,
    "##ав": 182,
    "##аза": 209,
    "##юдов": 316,
    "##а,": 216,
    "##хлюдов": 310,
    "##ку": 379,
    "##у,": 279,
    "ô": 92,
    "##еп": 414,
    "##лс": 423,
    "##об": 201,
    "##азала": 483,
    "##лю": 295,
    "##мни": 467,
    "a": 96,
    "н": 95,
    "##.": 133,
    "Д": 97,
    "##ств": 221,
    "v": 99,
    "##орил": 426,
    "##ув": 433,
    "##г": 129,
    "##нн": 192,
    "##сси": 499,
    "##ю,": 403,
    "##ыл": 188,
    "##ал": 137,
    "##асиль": 353,
    "##ния": 382,
    "##ори": 300,
    "##гд": 248,
    "И": 110,
    "##зн": 281,
    "##ить": 241,
    "##ень": 390,
    "##тво": 298,
    "у": 8,
    "а": 9,
    "##юд": 259,
    "##ич": 428,
    "##у.": 481,
    "##ед": 215,
    "##му": 227,
    "##жа": 455,
    "##ыло": 297,
    "##ты": 380,
    "##тель": 424,
    "d": 22,
    "##нно": 265,
    "##бе": 293,
    "##ия": 286,
    "##л,": 446,
    "##ло": 159,
    "##енн": 238,
    "0": 33,
    "##. ": 396,
    "##б": 136,
    "##о,": 197,
    "##жен": 469,
    "##ег": 229,
    "##ест": 400,
    "##ля": 272,
    "##тно": 453,
    "##м,": 261,
    "##ельн": 392,
    "t": 45,
    "##,": 120,
    "p": 48,
    "##от": 171,
    "##из": 331,
    "##уч": 497,
    "r": 52,
    "##е,": 195,
    "##отор": 267,
    "##сле": 399,
    "##вс": 386,
    "[CLS]": 2,
    "##бр": 479,
    "##ам": 202,
    "##ша": 482,
    "##ме": 289,
    "##зы": 496,
    "##ой": 179,
    "w": 60,
    "##тел": 325,
    "o": 62,
    "##ыва": 401,
    "##увст": 470,
    "##сил": 290,
    "##рав": 351,
    "##ь": 125,
    "##ль": 163,
    "##увс": 485,
    "##ее": 378,
    "m": 69,
    "##бы": 407,
    "ц": 70,
    "##бо": 388,
    "А": 75,
    "З": 76,
    "##ым": 326,
    "##еч": 439,
    "##ма": 304,
    "Б": 80,
    "##льно": 366,
    "##ери": 473,
    "##ще": 306,
    "##но": 132,
    "##каза": 270,
    "##го": 146,
    "э": 87,
    "##–": 175,
    "##ти": 190,
    "##я,": 249,
    "##ным": 425,
    "##аки": 452,
    "##жд": 332,
    "##ву": 402,
    "##и.": 460,
    "##ч": 147,
    "##тв": 189,
    "##ад": 232,
    "##се": 251,
    "##пом": 471,
    "##хл": 305,
    "##сп": 260,
    "##сильев": 367,
    "##льев": 368,
    "##ан": 230,
    "##аю": 442,
    "##асил": 373,
    "5": 104,
    "##уж": 341,
    "##силь": 347,
    "##оло": 385,
    "##ила": 419,
    "ю": 5,
    "##ую": 301,
    "ё": 7,
    "##х": 158,
    "## ": 176,
    "-": 10,
    "##ыв": 404,
    "##на": 150,
    "##ство": 375,
    "##хлю": 321,
    "##дит": 489,
    "У": 15,
    "##й,": 236,
    "##то": 130,
    "##мн": 276,
    "##оль": 346,
    "##ью": 451,
    "##ья": 412,
    "##ш": 151,
    "C": 25,
    "c": 26,
    "##ель": 312,
    "##людов": 313,
    "##ит": 168,
    "##огда": 283,
    "##илье": 358,
    "##вств": 464,
    "##де": 213,
    "##ебе": 415,
    "##торо": 484,
    "##ся": 194,
    "##ела": 285,
    "?": 34,
    "С": 35,
    "##од": 191,
    "##ас": 166,
    "##ехлю": 315,
    "##ур": 454,
    "##ет": 205,
    "##оф": 393,
    "s": 38,
    "##р": 119,
    "##лос": 359,
    "’": 41,
    "х": 44,
    "##дов": 268,
    "##нос": 459,
    "##ть": 144,
    "##осо": 498,
    "##жи": 443,
    "##ак": 157,
    "–": 49,
    "##ов": 138,
    "##ла": 142,
    "##ительн": 490,
    "##и,": 231,
    "##о.": 345,
    "##ут": 435,
    "##ог": 162,
    "##ени": 204,
    "##асилье": 370,
    "##нь": 309,
    "##азал": 287,
    "##д": 123,
    "##льевн": 356,
    "##по": 271,
    "##з": 131,
    "К": 55,
    "g": 57,
    "##я": 127,
    "##сти": 273,
    "##енно": 311,
    "##ител": 427,
    "##ере": 376,
    "##ая": 207,
    "##ня": 253,
    "##е": 112,
    "##ь,": 277,
    "##ей": 217,
    "##в": 121,
    "«": 71,
    "##изн": 448,
    "##оро": 352,
    "##оворил": 431,
    "2": 77,
    "##омни": 449,
    "##ру": 274,
    "о": 78,
    "##ко": 170,
    "##-": 389,
    "##рос": 406,
    "##сь": 228,
    "h": 81,
    "##овори": 339,
    "##л": 117,
    "##офь": 411,
    "##ехлюдо": 318,
    "##ос": 155,
    "##пе": 472,
    "ъ": 89,
    "##т": 116,
    "##ст": 135,
    "##ен": 139,
    "##лу": 413,
    "##фь": 408,
    "u": 91,
    "##ина": 480,
    "##хлюд": 317,
    "##ехл": 308,
    "##ум": 493,
    "1": 93,
    "##ги": 354,
    "м": 94,
    "##ста": 327,
    "##тал": 417,
    "##вн": 246,
    "й": 98,
    "[UNK]": 1,
    "##ес": 210,
    "##сл": 258,
    "Н": 100,
    "Т": 101,
    "##и": 114,
    "##зал": 278,
    "##сс": 405,
    "##вст": 444,
    "##а.": 409,
    "##со": 355,
    "»": 106,
    "и": 107,
    "##ото": 224,
    "ш": 108,
    "n": 109
  },
  "specialTokens": {
    "padToken": "[PAD]",
    "unkToken": "[UNK]",
    "bosToken": "[CLS]",
    "eosToken": "[SEP]",
    "sepToken": "[SEP]",
    "clsToken": "[CLS]",
    "maskToken": "[MASK]"
  },
  "specialTokenIds": {
    "[PAD]": 0,
    "[UNK]": 1,
    "[CLS]": 2,
    "[SEP]": 3,
    "[MASK]": 4
  },
  "continuingSubwordPrefix": "##",
  "maxInputCharsPerWord": 100,
  "preserveCase": true
}